TRT-101303-MinMaxCalibration
images: 3c010204
/model.0/conv/Conv_output_0: 3f09600d
/model.0/act/Sigmoid_output_0: 3c010204
/model.0/act/Mul_output_0: 3f012b3b
/model.1/conv/Conv_output_0: 3f3a3d08
/model.1/act/Sigmoid_output_0: 3c010204
/model.1/act/Mul_output_0: 3f354b7c
/model.2/cv1/conv/Conv_output_0: 3f6b9110
/model.2/cv1/act/Sigmoid_output_0: 3c010204
/model.2/cv1/act/Mul_output_0: 3e939d43
/model.2/Split_output_0: 3e939d43
/model.2/Split_output_1: 3df3e3e1
/model.2/m.0/cv1/conv/Conv_output_0: 3e02cdd9
/model.2/m.0/cv1/act/Sigmoid_output_0: 3c00b620
/model.2/m.0/cv1/act/Mul_output_0: 3d436ecc
/model.2/m.0/cv2/conv/Conv_output_0: 3e8210ce
/model.2/m.0/cv2/act/Sigmoid_output_0: 3c010204
/model.2/m.0/cv2/act/Mul_output_0: 3e4f2d07
/model.2/m.0/Add_output_0: 3e516665
/model.2/Concat_output_0: 3e939d43
/model.2/cv2/conv/Conv_output_0: 3eb7076a
/model.2/cv2/act/Sigmoid_output_0: 3c0101fd
/model.2/cv2/act/Mul_output_0: 3de1a27e
/model.3/conv/Conv_output_0: 3da49141
/model.3/act/Sigmoid_output_0: 3c00cdcc
/model.3/act/Mul_output_0: 3d4fa114
/model.4/cv1/conv/Conv_output_0: 3d784b8f
/model.4/cv1/act/Sigmoid_output_0: 3bffa3e6
/model.4/cv1/act/Mul_output_0: 3d15802f
/model.4/Split_output_0: 3d15802f
/model.4/Split_output_1: 3cf78fee
/model.4/m.0/cv1/conv/Conv_output_0: 3d391726
/model.4/m.0/cv1/act/Sigmoid_output_0: 3bfac11c
/model.4/m.0/cv1/act/Mul_output_0: 3cde0a39
/model.4/m.0/cv2/conv/Conv_output_0: 3d4a24c5
/model.4/m.0/cv2/act/Sigmoid_output_0: 3c00c37e
/model.4/m.0/cv2/act/Mul_output_0: 3d49c2cd
/model.4/m.0/Add_output_0: 3d4528d1
/model.4/Concat_output_0: 3d4528d1
/model.4/cv2/conv/Conv_output_0: 3d841ab3
/model.4/cv2/act/Sigmoid_output_0: 3bfeef61
/model.4/cv2/act/Mul_output_0: 3d0cb7ab
/model.5/conv/Conv_output_0: 3d803f37
/model.5/act/Sigmoid_output_0: 3bff7559
/model.5/act/Mul_output_0: 3d130522
/model.6/cv1/conv/Conv_output_0: 3dbded6e
/model.6/cv1/act/Sigmoid_output_0: 3c00ff4b
/model.6/cv1/act/Mul_output_0: 3d97a79e
/model.6/m.0/m.0.0/attn/qkv/conv/Conv_output_0: 3da3040c
/model.6/m.0/m.0.0/attn/Reshape_output_0: 3da3040c
/model.6/m.0/m.0.0/attn/Transpose_output_0: 3da3040c
/model.6/m.0/m.0.0/attn/Reshape_2_output_0: 3da3040c
/model.6/m.0/m.0.0/attn/Transpose_1_output_0: 3da3040c
/model.6/m.0/m.0.0/attn/Split_output_0: 3d15c8fc
/model.6/m.0/m.0.0/attn/Split_output_1: 3d2a2968
/model.6/m.0/m.0.0/attn/Split_output_2: 3da3040c
/model.6/m.0/m.0.0/attn/Transpose_2_output_0: 3d15c8fc
/model.6/m.0/m.0.0/attn/Transpose_5_output_0: 3da3040c
/model.6/m.0/m.0.0/attn/MatMul_output_0: 3eebd680
/model.6/m.0/m.0.0/attn/Reshape_6_output_0: 3da3040c
/model.6/m.0/m.0.0/attn/Constant_6_output_0_output: 3ab671d7
ONNXTRT_Broadcast_output: 3ab671d7
/model.6/m.0/m.0.0/attn/Mul_output_0: 3da6c337
/model.6/m.0/m.0.0/attn/Transpose_7_output_0: 3da3040c
/model.6/m.0/m.0.0/attn/Softmax_output: 3b61b882
/model.6/m.0/m.0.0/attn/Softmax_output_0: 3b61b882
/model.6/m.0/m.0.0/attn/pe/conv/Conv_output_0: 3d567b03
/model.6/m.0/m.0.0/attn/Transpose_3_output_0: 3b61b882
/model.6/m.0/m.0.0/attn/MatMul_1_output_0: 3d4ebd2f
/model.6/m.0/m.0.0/attn/Transpose_4_output_0: 3d4ebd2f
/model.6/m.0/m.0.0/attn/Reshape_5_output_0: 3d4ebd2f
/model.6/m.0/m.0.0/attn/Transpose_6_output_0: 3d4ebd2f
/model.6/m.0/m.0.0/attn/Add_output_0: 3d5264cf
/model.6/m.0/m.0.0/attn/proj/conv/Conv_output_0: 3d2695f6
/model.6/m.0/m.0.0/Add_output_0: 3daadecd
/model.6/m.0/m.0.0/mlp/mlp.0/conv/Conv_output_0: 3d5d4d26
/model.6/m.0/m.0.0/mlp/mlp.0/act/Sigmoid_output_0: 3bfc0c15
/model.6/m.0/m.0.0/mlp/mlp.0/act/Mul_output_0: 3cebdcd5
/model.6/m.0/m.0.0/mlp/mlp.1/conv/Conv_output_0: 3d00e6af
/model.6/m.0/m.0.0/Add_1_output_0: 3d9e91fa
/model.6/m.0/m.0.1/attn/qkv/conv/Conv_output_0: 3d70fa5d
/model.6/m.0/m.0.1/attn/Reshape_output_0: 3d70fa5d
/model.6/m.0/m.0.1/attn/Transpose_output_0: 3d70fa5d
/model.6/m.0/m.0.1/attn/Reshape_2_output_0: 3d70fa5d
/model.6/m.0/m.0.1/attn/Transpose_1_output_0: 3d70fa5d
/model.6/m.0/m.0.1/attn/Split_output_0: 3d64df4e
/model.6/m.0/m.0.1/attn/Split_output_1: 3d70fa5d
/model.6/m.0/m.0.1/attn/Split_output_2: 3d6bb717
/model.6/m.0/m.0.1/attn/Transpose_2_output_0: 3d64df4e
/model.6/m.0/m.0.1/attn/Transpose_5_output_0: 3d6bb717
/model.6/m.0/m.0.1/attn/MatMul_output_0: 3f6bb7bd
/model.6/m.0/m.0.1/attn/Reshape_6_output_0: 3d6bb717
ONNXTRT_Broadcast_24_output: 3ab671d7
/model.6/m.0/m.0.1/attn/Mul_output_0: 3e26ad78
/model.6/m.0/m.0.1/attn/Transpose_7_output_0: 3d6bb717
/model.6/m.0/m.0.1/attn/Softmax_output: 3c0012ce
/model.6/m.0/m.0.1/attn/Softmax_output_0: 3c0012ce
/model.6/m.0/m.0.1/attn/pe/conv/Conv_output_0: 3d213890
/model.6/m.0/m.0.1/attn/Transpose_3_output_0: 3c0012ce
/model.6/m.0/m.0.1/attn/MatMul_1_output_0: 3d32df1c
/model.6/m.0/m.0.1/attn/Transpose_4_output_0: 3d32df1c
/model.6/m.0/m.0.1/attn/Reshape_5_output_0: 3d32df1c
/model.6/m.0/m.0.1/attn/Transpose_6_output_0: 3d32df1c
/model.6/m.0/m.0.1/attn/Add_output_0: 3cfaae90
/model.6/m.0/m.0.1/attn/proj/conv/Conv_output_0: 3cc1809b
/model.6/m.0/m.0.1/Add_output_0: 3d9a7520
/model.6/m.0/m.0.1/mlp/mlp.0/conv/Conv_output_0: 3d7ff807
/model.6/m.0/m.0.1/mlp/mlp.0/act/Sigmoid_output_0: 3bfed249
/model.6/m.0/m.0.1/mlp/mlp.0/act/Mul_output_0: 3d0b7d00
/model.6/m.0/m.0.1/mlp/mlp.1/conv/Conv_output_0: 3d1e9a8f
/model.6/m.0/m.0.1/Add_1_output_0: 3d925e4e
/model.6/m.1/m.1.0/attn/qkv/conv/Conv_output_0: 3d8641cb
/model.6/m.1/m.1.0/attn/Reshape_output_0: 3d8641cb
/model.6/m.1/m.1.0/attn/Transpose_output_0: 3d8641cb
/model.6/m.1/m.1.0/attn/Reshape_2_output_0: 3d8641cb
/model.6/m.1/m.1.0/attn/Transpose_1_output_0: 3d8641cb
/model.6/m.1/m.1.0/attn/Split_output_0: 3d06eef2
/model.6/m.1/m.1.0/attn/Split_output_1: 3d1e65dc
/model.6/m.1/m.1.0/attn/Split_output_2: 3d8641cb
/model.6/m.1/m.1.0/attn/Transpose_2_output_0: 3d06eef2
/model.6/m.1/m.1.0/attn/Transpose_5_output_0: 3d8641cb
/model.6/m.1/m.1.0/attn/MatMul_output_0: 3ed906e7
/model.6/m.1/m.1.0/attn/Reshape_6_output_0: 3d8641cb
ONNXTRT_Broadcast_36_output: 3ab671d7
/model.6/m.1/m.1.0/attn/Mul_output_0: 3d997613
/model.6/m.1/m.1.0/attn/Transpose_7_output_0: 3d8641cb
/model.6/m.1/m.1.0/attn/Softmax_output: 3badcc62
/model.6/m.1/m.1.0/attn/Softmax_output_0: 3badcc62
/model.6/m.1/m.1.0/attn/pe/conv/Conv_output_0: 3d50495b
/model.6/m.1/m.1.0/attn/Transpose_3_output_0: 3badcc62
/model.6/m.1/m.1.0/attn/MatMul_1_output_0: 3d4162d1
/model.6/m.1/m.1.0/attn/Transpose_4_output_0: 3d4162d1
/model.6/m.1/m.1.0/attn/Reshape_5_output_0: 3d4162d1
/model.6/m.1/m.1.0/attn/Transpose_6_output_0: 3d4162d1
/model.6/m.1/m.1.0/attn/Add_output_0: 3d43ff1f
/model.6/m.1/m.1.0/attn/proj/conv/Conv_output_0: 3d4aef98
/model.6/m.1/m.1.0/Add_output_0: 3d882c9a
/model.6/m.1/m.1.0/mlp/mlp.0/conv/Conv_output_0: 3d68a27b
/model.6/m.1/m.1.0/mlp/mlp.0/act/Sigmoid_output_0: 3bfea5c2
/model.6/m.1/m.1.0/mlp/mlp.0/act/Mul_output_0: 3d09afa7
/model.6/m.1/m.1.0/mlp/mlp.1/conv/Conv_output_0: 3d60bd13
/model.6/m.1/m.1.0/Add_1_output_0: 3d9c60bd
/model.6/m.1/m.1.1/attn/qkv/conv/Conv_output_0: 3d98a95f
/model.6/m.1/m.1.1/attn/Reshape_output_0: 3d98a95f
/model.6/m.1/m.1.1/attn/Transpose_output_0: 3d98a95f
/model.6/m.1/m.1.1/attn/Reshape_2_output_0: 3d98a95f
/model.6/m.1/m.1.1/attn/Transpose_1_output_0: 3d98a95f
/model.6/m.1/m.1.1/attn/Split_output_0: 3d6c9d7f
/model.6/m.1/m.1.1/attn/Split_output_1: 3d7b8351
/model.6/m.1/m.1.1/attn/Split_output_2: 3d98a95f
/model.6/m.1/m.1.1/attn/Transpose_2_output_0: 3d6c9d7f
/model.6/m.1/m.1.1/attn/Transpose_5_output_0: 3d98a95f
/model.6/m.1/m.1.1/attn/MatMul_output_0: 3f6d1b06
/model.6/m.1/m.1.1/attn/Reshape_6_output_0: 3d98a95f
ONNXTRT_Broadcast_48_output: 3ab671d7
/model.6/m.1/m.1.1/attn/Mul_output_0: 3e27a8b0
/model.6/m.1/m.1.1/attn/Transpose_7_output_0: 3d98a95f
/model.6/m.1/m.1.1/attn/Softmax_output: 3c00e678
/model.6/m.1/m.1.1/attn/Softmax_output_0: 3c00e678
/model.6/m.1/m.1.1/attn/pe/conv/Conv_output_0: 3d750431
/model.6/m.1/m.1.1/attn/Transpose_3_output_0: 3c00e678
/model.6/m.1/m.1.1/attn/MatMul_1_output_0: 3d937a08
/model.6/m.1/m.1.1/attn/Transpose_4_output_0: 3d937a08
/model.6/m.1/m.1.1/attn/Reshape_5_output_0: 3d937a08
/model.6/m.1/m.1.1/attn/Transpose_6_output_0: 3d937a08
/model.6/m.1/m.1.1/attn/Add_output_0: 3d46ec56
/model.6/m.1/m.1.1/attn/proj/conv/Conv_output_0: 3d12c298
/model.6/m.1/m.1.1/Add_output_0: 3da55df8
/model.6/m.1/m.1.1/mlp/mlp.0/conv/Conv_output_0: 3d495126
/model.6/m.1/m.1.1/mlp/mlp.0/act/Sigmoid_output_0: 3bf6b5f2
/model.6/m.1/m.1.1/mlp/mlp.0/act/Mul_output_0: 3cbe274f
/model.6/m.1/m.1.1/mlp/mlp.1/conv/Conv_output_0: 3d7fdd45
/model.6/m.1/m.1.1/Add_1_output_0: 3db2d0cc
/model.6/Concat_output_0: 3db2d0cc
/model.6/cv2/conv/Conv_output_0: 3d529adb
/model.6/cv2/act/Sigmoid_output_0: 3c00b5b0
/model.6/cv2/act/Mul_output_0: 3d433ed1
/model.7/conv/Conv_output_0: 3d52ba58
/model.7/act/Sigmoid_output_0: 3c00a81e
/model.7/act/Mul_output_0: 3d3de249
/model.8/cv1/conv/Conv_output_0: 3d915ef2
/model.8/cv1/act/Sigmoid_output_0: 3c00fe02
/model.8/cv1/act/Mul_output_0: 3d915a6e
/model.8/m.0/m.0.0/attn/qkv/conv/Conv_output_0: 3dc2ed8f
/model.8/m.0/m.0.0/attn/Reshape_output_0: 3dc2ed8f
/model.8/m.0/m.0.0/attn/Transpose_output_0: 3dc2ed8f
/model.8/m.0/m.0.0/attn/Reshape_1_output_0: 3dc2ed8f
/model.8/m.0/m.0.0/attn/Transpose_1_output_0: 3dc2ed8f
/model.8/m.0/m.0.0/attn/Split_output_0: 3cf42bd8
/model.8/m.0/m.0.0/attn/Split_output_1: 3d16e456
/model.8/m.0/m.0.0/attn/Split_output_2: 3dc2ed8f
/model.8/m.0/m.0.0/attn/Transpose_2_output_0: 3cf42bd8
/model.8/m.0/m.0.0/attn/Transpose_5_output_0: 3dc2ed8f
/model.8/m.0/m.0.0/attn/MatMul_output_0: 3ea7e46d
/model.8/m.0/m.0.0/attn/Reshape_3_output_0: 3dc2ed8f
ONNXTRT_Broadcast_60_output: 3ab671d7
/model.8/m.0/m.0.0/attn/Mul_output_0: 3d6d6f80
/model.8/m.0/m.0.0/attn/Transpose_7_output_0: 3dc2ed8f
/model.8/m.0/m.0.0/attn/Softmax_output: 3b7fdee9
/model.8/m.0/m.0.0/attn/Softmax_output_0: 3b7fdee9
/model.8/m.0/m.0.0/attn/pe/conv/Conv_output_0: 3d505bdc
/model.8/m.0/m.0.0/attn/Transpose_3_output_0: 3b7fdee9
/model.8/m.0/m.0.0/attn/MatMul_1_output_0: 3c9f4761
/model.8/m.0/m.0.0/attn/Transpose_4_output_0: 3c9f4761
/model.8/m.0/m.0.0/attn/Reshape_2_output_0: 3c9f4761
/model.8/m.0/m.0.0/attn/Transpose_6_output_0: 3c9f4761
/model.8/m.0/m.0.0/attn/Add_output_0: 3d59370f
/model.8/m.0/m.0.0/attn/proj/conv/Conv_output_0: 3d3b32c2
/model.8/m.0/m.0.0/Add_output_0: 3d8ebb72
/model.8/m.0/m.0.0/mlp/mlp.0/conv/Conv_output_0: 3d52f803
/model.8/m.0/m.0.0/mlp/mlp.0/act/Sigmoid_output_0: 3bfc24f6
/model.8/m.0/m.0.0/mlp/mlp.0/act/Mul_output_0: 3ced0251
/model.8/m.0/m.0.0/mlp/mlp.1/conv/Conv_output_0: 3cea28b2
/model.8/m.0/m.0.0/Add_1_output_0: 3d866168
/model.8/m.0/m.0.1/attn/qkv/conv/Conv_output_0: 3d5c64ec
/model.8/m.0/m.0.1/attn/Reshape_output_0: 3d5c64ec
/model.8/m.0/m.0.1/attn/Transpose_output_0: 3d5c64ec
/model.8/m.0/m.0.1/attn/Reshape_1_output_0: 3d5c64ec
/model.8/m.0/m.0.1/attn/Transpose_1_output_0: 3d5c64ec
/model.8/m.0/m.0.1/attn/Split_output_0: 3d3fddff
/model.8/m.0/m.0.1/attn/Split_output_1: 3d3c3d79
/model.8/m.0/m.0.1/attn/Split_output_2: 3d5c64ec
/model.8/m.0/m.0.1/attn/Transpose_2_output_0: 3d3fddff
/model.8/m.0/m.0.1/attn/Transpose_5_output_0: 3d5c64ec
/model.8/m.0/m.0.1/attn/MatMul_output_0: 3f37ee54
/model.8/m.0/m.0.1/attn/Reshape_3_output_0: 3d5c64ec
ONNXTRT_Broadcast_72_output: 3ab671d7
/model.8/m.0/m.0.1/attn/Mul_output_0: 3e020f0f
/model.8/m.0/m.0.1/attn/Transpose_7_output_0: 3d5c64ec
/model.8/m.0/m.0.1/attn/Softmax_output: 3be9fbed
/model.8/m.0/m.0.1/attn/Softmax_output_0: 3be9fbed
/model.8/m.0/m.0.1/attn/pe/conv/Conv_output_0: 3d1a9f55
/model.8/m.0/m.0.1/attn/Transpose_3_output_0: 3be9fbed
/model.8/m.0/m.0.1/attn/MatMul_1_output_0: 3d38b192
/model.8/m.0/m.0.1/attn/Transpose_4_output_0: 3d38b192
/model.8/m.0/m.0.1/attn/Reshape_2_output_0: 3d38b192
/model.8/m.0/m.0.1/attn/Transpose_6_output_0: 3d38b192
/model.8/m.0/m.0.1/attn/Add_output_0: 3cf7ed83
/model.8/m.0/m.0.1/attn/proj/conv/Conv_output_0: 3cbdf295
/model.8/m.0/m.0.1/Add_output_0: 3d9934f0
/model.8/m.0/m.0.1/mlp/mlp.0/conv/Conv_output_0: 3d8b644b
/model.8/m.0/m.0.1/mlp/mlp.0/act/Sigmoid_output_0: 3c00587f
/model.8/m.0/m.0.1/mlp/mlp.0/act/Mul_output_0: 3d28ff66
/model.8/m.0/m.0.1/mlp/mlp.1/conv/Conv_output_0: 3d136ede
/model.8/m.0/m.0.1/Add_1_output_0: 3dad7870
/model.8/m.1/m.1.0/attn/qkv/conv/Conv_output_0: 3d5e355e
/model.8/m.1/m.1.0/attn/Reshape_output_0: 3d5e355e
/model.8/m.1/m.1.0/attn/Transpose_output_0: 3d5e355e
/model.8/m.1/m.1.0/attn/Reshape_1_output_0: 3d5e355e
/model.8/m.1/m.1.0/attn/Transpose_1_output_0: 3d5e355e
/model.8/m.1/m.1.0/attn/Split_output_0: 3d3718e0
/model.8/m.1/m.1.0/attn/Split_output_1: 3d4309a9
/model.8/m.1/m.1.0/attn/Split_output_2: 3d5e355e
/model.8/m.1/m.1.0/attn/Transpose_2_output_0: 3d3718e0
/model.8/m.1/m.1.0/attn/Transpose_5_output_0: 3d5e355e
/model.8/m.1/m.1.0/attn/MatMul_output_0: 3f2e816c
/model.8/m.1/m.1.0/attn/Reshape_3_output_0: 3d5e355e
ONNXTRT_Broadcast_84_output: 3ab671d7
/model.8/m.1/m.1.0/attn/Mul_output_0: 3df6c9c2
/model.8/m.1/m.1.0/attn/Transpose_7_output_0: 3d5e355e
/model.8/m.1/m.1.0/attn/Softmax_output: 3bc6ae32
/model.8/m.1/m.1.0/attn/Softmax_output_0: 3bc6ae32
/model.8/m.1/m.1.0/attn/pe/conv/Conv_output_0: 3d06989c
/model.8/m.1/m.1.0/attn/Transpose_3_output_0: 3bc6ae32
/model.8/m.1/m.1.0/attn/MatMul_1_output_0: 3d1a2e51
/model.8/m.1/m.1.0/attn/Transpose_4_output_0: 3d1a2e51
/model.8/m.1/m.1.0/attn/Reshape_2_output_0: 3d1a2e51
/model.8/m.1/m.1.0/attn/Transpose_6_output_0: 3d1a2e51
/model.8/m.1/m.1.0/attn/Add_output_0: 3cd510f8
/model.8/m.1/m.1.0/attn/proj/conv/Conv_output_0: 3cd5168a
/model.8/m.1/m.1.0/Add_output_0: 3da564bd
/model.8/m.1/m.1.0/mlp/mlp.0/conv/Conv_output_0: 3d750b5d
/model.8/m.1/m.1.0/mlp/mlp.0/act/Sigmoid_output_0: 3bfe2bdc
/model.8/m.1/m.1.0/mlp/mlp.0/act/Mul_output_0: 3d0529d9
/model.8/m.1/m.1.0/mlp/mlp.1/conv/Conv_output_0: 3d37a7d7
/model.8/m.1/m.1.0/Add_1_output_0: 3dad4b3a
/model.8/m.1/m.1.1/attn/qkv/conv/Conv_output_0: 3d72bed1
/model.8/m.1/m.1.1/attn/Reshape_output_0: 3d72bed1
/model.8/m.1/m.1.1/attn/Transpose_output_0: 3d72bed1
/model.8/m.1/m.1.1/attn/Reshape_1_output_0: 3d72bed1
/model.8/m.1/m.1.1/attn/Transpose_1_output_0: 3d72bed1
/model.8/m.1/m.1.1/attn/Split_output_0: 3d272544
/model.8/m.1/m.1.1/attn/Split_output_1: 3d641705
/model.8/m.1/m.1.1/attn/Split_output_2: 3d72bed1
/model.8/m.1/m.1.1/attn/Transpose_2_output_0: 3d272544
/model.8/m.1/m.1.1/attn/Transpose_5_output_0: 3d72bed1
/model.8/m.1/m.1.1/attn/MatMul_output_0: 3f11c332
/model.8/m.1/m.1.1/attn/Reshape_3_output_0: 3d72bed1
ONNXTRT_Broadcast_96_output: 3ab671d7
/model.8/m.1/m.1.1/attn/Mul_output_0: 3dce23a8
/model.8/m.1/m.1.1/attn/Transpose_7_output_0: 3d72bed1
/model.8/m.1/m.1.1/attn/Softmax_output: 3bf3d772
/model.8/m.1/m.1.1/attn/Softmax_output_0: 3bf3d772
/model.8/m.1/m.1.1/attn/pe/conv/Conv_output_0: 3d1ad5a9
/model.8/m.1/m.1.1/attn/Transpose_3_output_0: 3bf3d772
/model.8/m.1/m.1.1/attn/MatMul_1_output_0: 3d1f803e
/model.8/m.1/m.1.1/attn/Transpose_4_output_0: 3d1f803e
/model.8/m.1/m.1.1/attn/Reshape_2_output_0: 3d1f803e
/model.8/m.1/m.1.1/attn/Transpose_6_output_0: 3d1f803e
/model.8/m.1/m.1.1/attn/Add_output_0: 3d19225b
/model.8/m.1/m.1.1/attn/proj/conv/Conv_output_0: 3d5e7dd3
/model.8/m.1/m.1.1/Add_output_0: 3dc6ba9a
/model.8/m.1/m.1.1/mlp/mlp.0/conv/Conv_output_0: 3d8e53bf
/model.8/m.1/m.1.1/mlp/mlp.0/act/Sigmoid_output_0: 3bff09e6
/model.8/m.1/m.1.1/mlp/mlp.0/act/Mul_output_0: 3d0de0ac
/model.8/m.1/m.1.1/mlp/mlp.1/conv/Conv_output_0: 3d86e095
/model.8/m.1/m.1.1/Add_1_output_0: 3dc51143
/model.8/Concat_output_0: 3dc51143
/model.8/cv2/conv/Conv_output_0: 3d9412f0
/model.8/cv2/act/Sigmoid_output_0: 3bff9c7b
/model.8/cv2/act/Mul_output_0: 3d1517d0
/model.9/Resize_output_0: 3d1517d0
/model.10/Concat_output_0: 3d433ed1
/model.11/cv1/conv/Conv_output_0: 3d86e404
/model.11/cv1/act/Sigmoid_output_0: 3c00fa4e
/model.11/cv1/act/Mul_output_0: 3d86dbf4
/model.11/m.0/cv1/conv/Conv_output_0: 3d24c4c2
/model.11/m.0/cv2/conv/Conv_output_0: 3d5f9925
/model.11/m.0/cv1/act/Sigmoid_output_0: 3bf03e55
/model.11/m.0/cv2/act/Sigmoid_output_0: 3c00bafb
/model.11/m.0/cv1/act/Mul_output_0: 3c9c6698
/model.11/m.0/cv2/act/Mul_output_0: 3d459795
/model.11/m.0/m/m.0/cv1/conv/Conv_output_0: 3d18410b
/model.11/m.0/m/m.0/cv1/act/Sigmoid_output_0: 3bfd747b
/model.11/m.0/m/m.0/cv1/act/Mul_output_0: 3cfe93db
/model.11/m.0/m/m.0/cv2/conv/Conv_output_0: 3d46dd1d
/model.11/m.0/m/m.0/cv2/act/Sigmoid_output_0: 3c008911
/model.11/m.0/m/m.0/cv2/act/Mul_output_0: 3d3424eb
/model.11/m.0/m/m.0/Add_output_0: 3d33e3e9
/model.11/m.0/m/m.1/cv1/conv/Conv_output_0: 3d90a1be
/model.11/m.0/m/m.1/cv1/act/Sigmoid_output_0: 3bfee801
/model.11/m.0/m/m.1/cv1/act/Mul_output_0: 3d0c66dd
/model.11/m.0/m/m.1/cv2/conv/Conv_output_0: 3d86c365
/model.11/m.0/m/m.1/cv2/act/Sigmoid_output_0: 3c00fa3d
/model.11/m.0/m/m.1/cv2/act/Mul_output_0: 3d86bb46
/model.11/m.0/m/m.1/Add_output_0: 3daf4975
/model.11/m.0/Concat_output_0: 3daf4975
/model.11/m.0/cv3/conv/Conv_output_0: 3d417dad
/model.11/m.0/cv3/act/Sigmoid_output_0: 3c00ac71
/model.11/m.0/cv3/act/Mul_output_0: 3d3f7fa4
/model.11/Concat_output_0: 3d86dbf4
/model.11/cv2/conv/Conv_output_0: 3d21f2a2
/model.11/cv2/act/Sigmoid_output_0: 3bfb4c36
/model.11/cv2/act/Mul_output_0: 3ce38a5a
/model.12/Resize_output_0: 3ce38a5a
/model.13/Concat_output_0: 3d0cb7ab
/model.14/cv1/conv/Conv_output_0: 3cd771d9
/model.14/cv1/act/Sigmoid_output_0: 3bec8d06
/model.14/cv1/act/Mul_output_0: 3c8de9ef
/model.14/m.0/cv1/conv/Conv_output_0: 3cb92b60
/model.14/m.0/cv2/conv/Conv_output_0: 3d418c7d
/model.14/m.0/cv1/act/Sigmoid_output_0: 3bcbf88f
/model.14/m.0/cv2/act/Sigmoid_output_0: 3bfe2afa
/model.14/m.0/cv1/act/Mul_output_0: 3c07741c
/model.14/m.0/cv2/act/Mul_output_0: 3d052206
/model.14/m.0/m/m.0/cv1/conv/Conv_output_0: 3cd84689
/model.14/m.0/m/m.0/cv1/act/Sigmoid_output_0: 3bf79459
/model.14/m.0/m/m.0/cv1/act/Mul_output_0: 3cc3fbb3
/model.14/m.0/m/m.0/cv2/conv/Conv_output_0: 3d209f63
/model.14/m.0/m/m.0/cv2/act/Sigmoid_output_0: 3bfd3e28
/model.14/m.0/m/m.0/cv2/act/Mul_output_0: 3cfb6dc4
/model.14/m.0/m/m.0/Add_output_0: 3cf5ab2c
/model.14/m.0/m/m.1/cv1/conv/Conv_output_0: 3d3c2156
/model.14/m.0/m/m.1/cv1/act/Sigmoid_output_0: 3bfc49c8
/model.14/m.0/m/m.1/cv1/act/Mul_output_0: 3ceebfad
/model.14/m.0/m/m.1/cv2/conv/Conv_output_0: 3d8b5c86
/model.14/m.0/m/m.1/cv2/act/Sigmoid_output_0: 3c00fc37
/model.14/m.0/m/m.1/cv2/act/Mul_output_0: 3d8b5643
/model.14/m.0/m/m.1/Add_output_0: 3da75451
/model.14/m.0/Concat_output_0: 3da75451
/model.14/m.0/cv3/conv/Conv_output_0: 3d3abc8f
/model.14/m.0/cv3/act/Sigmoid_output_0: 3bf8fb32
/model.14/m.0/cv3/act/Mul_output_0: 3cce6de2
/model.14/Concat_output_0: 3cce6de2
/model.14/cv2/conv/Conv_output_0: 3d3187dc
/model.14/cv2/act/Sigmoid_output_0: 3bf910ea
/model.14/cv2/act/Mul_output_0: 3ccf1ba8
/model.15/conv/Conv_output_0: 3d36c4be
/model.21/cv2.0/cv2.0.0/conv/Conv_output_0: 3da9866d
/model.21/cv3.0/cv3.0.0/cv3.0.0.0/conv/Conv_output_0: 3d3fb167
/model.15/act/Sigmoid_output_0: 3bfcf5d6
/model.21/cv2.0/cv2.0.0/act/Sigmoid_output_0: 3bff7d30
/model.21/cv3.0/cv3.0.0/cv3.0.0.0/act/Sigmoid_output_0: 3bffcafa
/model.15/act/Mul_output_0: 3cf77084
/model.21/cv2.0/cv2.0.0/act/Mul_output_0: 3d136cf5
/model.21/cv3.0/cv3.0.0/cv3.0.0.0/act/Mul_output_0: 3d17bcbc
/model.16/Concat_output_0: 3cf77084
/model.21/cv2.0/cv2.0.1/conv/Conv_output_0: 3e8a09da
/model.21/cv3.0/cv3.0.0/cv3.0.0.1/conv/Conv_output_0: 3d7810dc
/model.17/cv1/conv/Conv_output_0: 3d3c1097
/model.21/cv2.0/cv2.0.1/act/Sigmoid_output_0: 3c010204
/model.21/cv3.0/cv3.0.0/cv3.0.0.1/act/Sigmoid_output_0: 3c00f2f1
/model.17/cv1/act/Sigmoid_output_0: 3c00a15e
/model.21/cv2.0/cv2.0.1/act/Mul_output_0: 3e8a09da
/model.21/cv3.0/cv3.0.0/cv3.0.0.1/act/Mul_output_0: 3d77f3df
/model.17/cv1/act/Mul_output_0: 3d3b83b2
/model.21/cv2.0/cv2.0.2/Conv_output_0: 3dff9a98
/model.21/cv3.0/cv3.0.1/cv3.0.1.0/conv/Conv_output_0: 3d874f34
/model.17/m.0/cv1/conv/Conv_output_0: 3ce4dab4
/model.17/m.0/cv2/conv/Conv_output_0: 3d832f64
/model.21/cv3.0/cv3.0.1/cv3.0.1.0/act/Sigmoid_output_0: 3c00a7de
/model.17/m.0/cv1/act/Sigmoid_output_0: 3bc9838f
/model.17/m.0/cv2/act/Sigmoid_output_0: 3c00a085
/model.21/cv3.0/cv3.0.1/cv3.0.1.0/act/Mul_output_0: 3d3dcaea
/model.17/m.0/cv1/act/Mul_output_0: 3c001ef9
/model.17/m.0/cv2/act/Mul_output_0: 3d3b3a79
/model.21/cv3.0/cv3.0.1/cv3.0.1.1/conv/Conv_output_0: 3e49b862
/model.17/m.0/m/m.0/cv1/conv/Conv_output_0: 3d0fec72
/model.21/cv3.0/cv3.0.1/cv3.0.1.1/act/Sigmoid_output_0: 3c010204
/model.17/m.0/m/m.0/cv1/act/Sigmoid_output_0: 3bf468dd
/model.21/cv3.0/cv3.0.1/cv3.0.1.1/act/Mul_output_0: 3e44800c
/model.17/m.0/m/m.0/cv1/act/Mul_output_0: 3cb07b71
/model.21/cv3.0/cv3.0.2/Conv_output_0: 3e342cd2
/model.17/m.0/m/m.0/cv2/conv/Conv_output_0: 3d2b361f
/model.21/Concat_output_0: 3e342cd2
/model.17/m.0/m/m.0/cv2/act/Sigmoid_output_0: 3bfe1634
/model.21/Reshape_output_0: 3e342cd2
/model.17/m.0/m/m.0/cv2/act/Mul_output_0: 3d046aea
/model.17/m.0/m/m.0/Add_output_0: 3cf97609
/model.17/m.0/m/m.1/cv1/conv/Conv_output_0: 3d5dfcda
/model.17/m.0/m/m.1/cv1/act/Sigmoid_output_0: 3c006bb5
/model.17/m.0/m/m.1/cv1/act/Mul_output_0: 3d2cf9d5
/model.17/m.0/m/m.1/cv2/conv/Conv_output_0: 3d987ce8
/model.17/m.0/m/m.1/cv2/act/Sigmoid_output_0: 3c00ff6f
/model.17/m.0/m/m.1/cv2/act/Mul_output_0: 3d9879db
/model.17/m.0/m/m.1/Add_output_0: 3d995a0f
/model.17/m.0/Concat_output_0: 3d995a0f
/model.17/m.0/cv3/conv/Conv_output_0: 3d8e2824
/model.17/m.0/cv3/act/Sigmoid_output_0: 3c00f5f7
/model.17/m.0/cv3/act/Mul_output_0: 3d7f3249
/model.17/Concat_output_0: 3d7f3249
/model.17/cv2/conv/Conv_output_0: 3daed04d
/model.17/cv2/act/Sigmoid_output_0: 3c009f87
/model.17/cv2/act/Mul_output_0: 3d3ae531
/model.18/conv/Conv_output_0: 3d75316d
/model.21/cv2.1/cv2.1.0/conv/Conv_output_0: 3dd808b3
/model.21/cv3.1/cv3.1.0/cv3.1.0.0/conv/Conv_output_0: 3d81285c
/model.18/act/Sigmoid_output_0: 3bfefbee
/model.21/cv2.1/cv2.1.0/act/Sigmoid_output_0: 3c00d74b
/model.21/cv3.1/cv3.1.0/cv3.1.0.0/act/Sigmoid_output_0: 3c00f712
/model.18/act/Mul_output_0: 3d0d42ff
/model.21/cv2.1/cv2.1.0/act/Mul_output_0: 3d5629f9
/model.21/cv3.1/cv3.1.0/cv3.1.0.0/act/Mul_output_0: 3d811d67
/model.19/Concat_output_0: 3d1517d0
/model.21/cv2.1/cv2.1.1/conv/Conv_output_0: 3e94006e
/model.21/cv3.1/cv3.1.0/cv3.1.0.1/conv/Conv_output_0: 3dce5824
/model.20/cv1/conv/Conv_output_0: 3d79daf3
/model.21/cv2.1/cv2.1.1/act/Sigmoid_output_0: 3c010204
/model.21/cv3.1/cv3.1.0/cv3.1.0.1/act/Sigmoid_output_0: 3c00f06e
/model.20/cv1/act/Sigmoid_output_0: 3c00da68
/model.21/cv2.1/cv2.1.1/act/Mul_output_0: 3e94006e
/model.21/cv3.1/cv3.1.0/cv3.1.0.1/act/Mul_output_0: 3d72f7b6
/model.20/cv1/act/Mul_output_0: 3d58a02f
/model.21/cv2.1/cv2.1.2/Conv_output_0: 3dbec15d
/model.21/cv3.1/cv3.1.1/cv3.1.1.0/conv/Conv_output_0: 3e2e1de0
/model.20/Split_output_0: 3d256c7c
/model.20/Split_output_1: 3d58a02f
/model.21/cv3.1/cv3.1.1/cv3.1.1.0/act/Sigmoid_output_0: 3c0101e5
/model.20/m.0/cv1/conv/Conv_output_0: 3cdeabc8
/model.20/m.0/cv2/conv/Conv_output_0: 3d4e7fa4
/model.21/cv3.1/cv3.1.1/cv3.1.1.0/act/Mul_output_0: 3dc9e8d7
/model.20/m.0/cv1/act/Sigmoid_output_0: 3bd34843
/model.20/m.0/cv2/act/Sigmoid_output_0: 3c00cb61
/model.21/cv3.1/cv3.1.1/cv3.1.1.1/conv/Conv_output_0: 3e9af3e1
/model.20/m.0/cv1/act/Mul_output_0: 3c1f6232
/model.20/m.0/cv2/act/Mul_output_0: 3d4e2830
/model.21/cv3.1/cv3.1.1/cv3.1.1.1/act/Sigmoid_output_0: 3c010204
/model.20/m.0/m/m.0/cv1/conv/Conv_output_0: 3d2ca446
/model.21/cv3.1/cv3.1.1/cv3.1.1.1/act/Mul_output_0: 3e9af3e1
/model.20/m.0/m/m.0/cv1/act/Sigmoid_output_0: 3bfcdef6
/model.21/cv3.1/cv3.1.2/Conv_output_0: 3e6a3842
/model.20/m.0/m/m.0/cv1/act/Mul_output_0: 3cf63945
/model.21/Concat_1_output_0: 3e6a3842
/model.20/m.0/m/m.0/cv2/conv/Conv_output_0: 3d9cec00
/model.21/Reshape_1_output_0: 3e6a3842
/model.20/m.0/m/m.0/cv2/act/Sigmoid_output_0: 3c00c096
/model.20/m.0/m/m.0/cv2/act/Mul_output_0: 3d4846bc
/model.20/m.0/m/m.0/Add_output_0: 3d44e0c5
/model.20/m.0/m/m.1/cv1/conv/Conv_output_0: 3d76b1e6
/model.20/m.0/m/m.1/cv1/act/Sigmoid_output_0: 3c00f249
/model.20/m.0/m/m.1/cv1/act/Mul_output_0: 3d7693d2
/model.20/m.0/m/m.1/cv2/conv/Conv_output_0: 3dd6f09c
/model.20/m.0/m/m.1/cv2/act/Sigmoid_output_0: 3c0101f6
/model.20/m.0/m/m.1/cv2/act/Mul_output_0: 3dd6f086
/model.20/m.0/m/m.1/Add_output_0: 3dd121ce
/model.20/m.0/Concat_output_0: 3dd121ce
/model.20/m.0/cv3/conv/Conv_output_0: 3db2cb04
/model.20/m.0/cv3/act/Sigmoid_output_0: 3c00fa5e
/model.20/m.0/cv3/act/Mul_output_0: 3d86fd2a
/model.20/Concat_output_0: 3d86fd2a
/model.20/cv2/conv/Conv_output_0: 3da84952
/model.20/cv2/act/Sigmoid_output_0: 3c01006b
/model.20/cv2/act/Mul_output_0: 3da04094
/model.21/cv2.2/cv2.2.0/conv/Conv_output_0: 3db117e0
/model.21/cv3.2/cv3.2.0/cv3.2.0.0/conv/Conv_output_0: 3dc092e3
/model.21/cv2.2/cv2.2.0/act/Sigmoid_output_0: 3c00faca
/model.21/cv3.2/cv3.2.0/cv3.2.0.0/act/Sigmoid_output_0: 3c010137
/model.21/cv2.2/cv2.2.0/act/Mul_output_0: 3d87e187
/model.21/cv3.2/cv3.2.0/cv3.2.0.0/act/Mul_output_0: 3dab4e29
/model.21/cv2.2/cv2.2.1/conv/Conv_output_0: 3ed67999
/model.21/cv3.2/cv3.2.0/cv3.2.0.1/conv/Conv_output_0: 3e023378
/model.21/cv2.2/cv2.2.1/act/Sigmoid_output_0: 3c010204
/model.21/cv3.2/cv3.2.0/cv3.2.0.1/act/Sigmoid_output_0: 3c006c71
/model.21/cv2.2/cv2.2.1/act/Mul_output_0: 3ed67999
/model.21/cv3.2/cv3.2.0/cv3.2.0.1/act/Mul_output_0: 3d2d230e
/model.21/cv2.2/cv2.2.2/Conv_output_0: 3dacc522
/model.21/cv3.2/cv3.2.1/cv3.2.1.0/conv/Conv_output_0: 3e03f15a
/model.21/cv3.2/cv3.2.1/cv3.2.1.0/act/Sigmoid_output_0: 3c010204
/model.21/cv3.2/cv3.2.1/cv3.2.1.0/act/Mul_output_0: 3e03f15a
/model.21/cv3.2/cv3.2.1/cv3.2.1.1/conv/Conv_output_0: 3e73e8f2
/model.21/cv3.2/cv3.2.1/cv3.2.1.1/act/Sigmoid_output_0: 3c010204
/model.21/cv3.2/cv3.2.1/cv3.2.1.1/act/Mul_output_0: 3e73e8f2
/model.21/cv3.2/cv3.2.2/Conv_output_0: 3e4f3ea6
/model.21/Concat_2_output_0: 3e4f3ea6
/model.21/Reshape_2_output_0: 3e4f3ea6
/model.21/Concat_3_output_0: 3e6a3842
/model.21/Split_output_0: 3dff9a98
/model.21/Split_output_1: 3e6a3842
/model.21/dfl/Reshape_output_0: 3dff9a98
/model.21/Sigmoid_output_0: 3bf11d0c
/model.21/dfl/Transpose_output_0: 3dff9a98
/model.21/dfl/Softmax_output: 3bf883bb
/model.21/dfl/Softmax_output_0: 3bf883bb
/model.21/dfl/conv/Conv_output_0: 3dd4bffb
/model.21/dfl/Reshape_1_output_0: 3dd4bffb
/model.21/Sub_1_output_0: 3e3ecf30
/model.21/Div_1_output_0: 3f20a8b5
ONNXTRT_Broadcast_176_output: 3e810204
/model.21/Slice_output_0: 3dc12250
/model.21/Add_1_output_0: 3f260020
/model.21/Constant_10_output_0_output: 3f204081
/model.21/Add_2_output_0: 3fa0a8b5
/model.21/Sub_output_0: 3f1fea63
ONNXTRT_Broadcast_174_output: 3c810204
/model.21/Constant_9_output_0_output: 3f204081
/model.21/Constant_12_output_0_output: 3e810204
/model.21/Constant_11_output_0_output: 3c810204
/model.21/Slice_1_output_0: 3dd4bffb
output0: 40a47405
/model.21/Mul_2_output_0: 40a47405
/model.21/Concat_4_output_0: 3f20a8b5
